fff7
3
fff7
fffd
fffd
fffb
fff8
fff9
9
ffff
6
7
1
5
6
fffd
fffb
6
7
fffc
fffb
8
9
fffa
fffb
1
fffb
7
fffc
0
7
5
7
fffe
fff6
fff6
7
0
fffd
fff6
9
1
1
fff8
fff8
fffd
1
fffa
fff7
8
1
ffff
1
4
7
fffe
fffe
fffc
fffb
0
fffb
fffd
8
2
fffc
6
fff7
fff8
fffc
9
2
2
3
fffa
1
fff6
8
fffd
fff6
8
fffe
fff6
fff6
fffa
3
2
3
5
3
6
7
9
fff6
ffff
fffe
fffd
4
7
6
9
fff6
fffe
0
0
3
fff6
fffd
7
6
fffd
4
9
6
4
7
fff9
3
fffa
ffff
fff7
fff6
ffff
6
9
fffd
7
fffb
ffff
fffe
fff8
fff9
fffa
fff8
fff9
4
fff8
3
5
5
ffff
7
4
fff8
fff7
fff9
fffd
fff9
fffb
fffd
9
7
ffff
0
fffb
3
fff9
fff9
fff9
5
fffb
9
5
1
fffd
fffe
0
7
fffc
6
3
fffb
fff9
4
fff7
5
2
fffa
ffff
fffa
fffb
ffff
4
fffd
fffb
1
fff6
1
9
fff9
fffc
fffa
fffa
7
fff9
fff6
ffff
9
fff7
fffe
fff6
fffa
fffa
1
4
fff7
fffd
7
fff6
1
fffd
ffff
fffb
fff8
6
3
6
7
fffd
fff9
fff9
fff6
fffb
fffc
ffff
1
fff6
7
1
fffb
fff9
fff9
fff6
fffc
fffe
8
fffe
ffff
0
2
fff7
6
fffb
2
6
6
fffd
ffff
8
5
ffff
fffc
fffe
9
1
2
0
fff8
fff6
3
4
fffd
8
fff6
0
fffe
2
fffb
fff6
fff9
fff9
fffd
1
fff8
0
fff8
9
3
8
fff7
0
7
fffc
fffe
4
4
fffc
fffa
9
ffff
fffd
8
5
4
fffb
fffb
fff9
9
7
fffa
1
fffb
fffb
8
4
2
6
fff6
7
fff9
4
ffff
ffff
1
fff7
1
8
2
fffa
9
fffe
6
2
9
0
fff6
fffe
5
fff8
fff6
9
5
fffb
2
fff7
fff8
fff7
ffff
fffd
fffb
fff7
9
fff7
fff9
fffd
fffc
fff6
4
6
9
9
fffe
1
2
fffd
fffb
4
3
fff9
8
5
fffd
8
ffff
fffc
fff7
9
fff8
7
1
fff8
fffd
fffd
6
7
8
7
7
fffb
3
fffc
9
2
9
fffd
fff7
5
fffb
fff9
2
4
5
fff8
3
1
2
7
ffff
fffb
fffc
fff9
3
fff7
6
8
fff8
fff9
ffff
fffa
fffd
fffa
4
1
3
6
6
5
5
2
fff7
0
7
6
fffe
0
fffa
2
4
2
4
fff6
fffb
4
5
fffb
ffff
fff6
fff9
ffff
fff6
fffa
fff7
3
fff7
3
fffc
fff9
fff9
0
5
8
3
8
7
fffa
fff7
6
0
7
fff7
fff6
fffe
9
5
7
fffc
9
fff8
4
fff8
fffa
ffff
fffa
fffc
fffa
9
4
1
fffb
fff9
fff8
9
9
0
fff9
0
fffb
9
3
7
2
0
5
0
fff6
fffb
fffc
fffc
fff7
fffd
fff8
fffe
ffff
6
fff9
fff8
2
fffa
1
fffd
fff6
fffa
fff9
6
fff9
1
6
fffe
fffe
8
fff9
fffb
4
fff7
fffa
9
9
9
5
8
fffa
8
5
fff9
2
7
ffff
fffa
0
fff9
fffd
4
fffe
fffb
fffa
5
3
fff8
4
5
ffff
4
5
fff6
0
fff8
3
fff8
fffe
2
6
fffa
fffc
1
8
4
fffc
fffa
fff8
fffe
fff6
0
6
fffb
5
4
fffa
8
7
ffff
fff6
ffff
5
6
7
fffa
5
8
6
fff9
fffc
8
fff7
2
fffe
fffb
fffa
1
4
ffff
9
fffc
6
fffe
4
fff9
fff9
fffd
5
4
0
4
fffb
fffa
3
0
2
5
6
fffa
fffd
fffc
2
1
fffa
fffa
4
fff8
fff7
3
6
2
fffb
fffe
ffff
fffc
fffb
fff8
fffe
6
fffb
1
fffe
7
fff8
1
3
8
fffb
7
fff6
fffa
fff7
fff7
fffd
6
fff6
6
ffff
fff6
6
fffe
fff7
fff8
5
fffe
3
7
6
0
2
5
7
1
2
fff9
1
fffc
fffd
fff8
fffe
7
5
fffa
6
fffd
2
fffc
3
8
fffc
fffb
fffc
8
3
8
fff8
fffb
5
fffe
0
8
4
fffc
fff6
0
6
5
fffe
3
ffff
4
2
fff6
fffe
0
fff8
fff7
fffa
ffff
7
2
1
fffd
1
7
fff8
0
4
fffb
4
fff8
fff9
fffd
fffe
5
fffe
fff8
fff7
fffd
ffff
4
8
fff6
8
fffa
2
fffb
0
fffe
fffb
fffe
3
fffc
fffd
3
fffe
9
1
5
fffe
4
5
8
fff9
fff7
6
fffb
fffc
5
fff9
5
fffa
fffa
fffe
fff7
2
3
fffd
fffd
2
fff8
5
fff6
fffc
8
fffb
1
2
ffff
fff7
0
0
9
fffb
8
fffd
6
fffd
7
fff9
fff7
3
4
fffa
3
fff6
1
8
2
9
9
9
fff7
fff7
6
6
fff6
fffd
1
fff6
5
ffff
ffff
fffb
2
7
7
fff9
fffc
6
fffd
fffd
3
5
2
5
1
1
0
fff8
0
7
9
fffc
fffb
6
fffe
4
1
9
2
0
5
1
fffe
0
0
fff9
fffa
1
2
5
1
fff6
8
7
fffd
fffe
7
fff6
5
3
6
fffa
fff9
8
2
6
0
fff7
fff6
fffc
9
fff9
3
ffff
fff8
fffc
0
6
fffa
8
9
fffb
6
8
0
0
4
0
8
7
6
5
fff7
7
3
9
0
fff7
5
3
0
fff7
4
7
8
fff8
7
fffc
0
fff6
7
ffff
fff9
9
1
2
0
0
2
4
5
1
fff7
fff8
fff8
0
2
1
2
0
ffff
fffa
ffff
5
0
fff9
fff6
0
fff9
fff6
6
6
fffc
6
2
5
7
4
fffe
9
0
fff8
fffe
1
fffa
3
fffa
1
fff8
fff9
ffff
1
3
fffd
6
fff7
7
9
7
fffb
1
fff8
0
0
fffc
7
1
fffe
ffff
fff6
7
fff7
8
fff9
2
1
7
1
fffe
ffff
5
fff7
8
fff9
fff9
1
fff8
fffa
2
fff6
1
fffe
ffff
8
fffc
7
4
fffc
fffc
fffc
fff7
0
2
fffc
4
fffd
4
fff7
0
0
6
5
fff7
1
1
ffff
fff9
ffff
3
fff7
2
6
fff7
fffa
7
4
9
1
6
fff9
7
fff8
fff9
1
7
fff9
fff8
6
3
0
0
3
fffb
fff8
fff9
6
7
fffa
fffd
6
7
4
3
7
2
4
fff6
1
7
fffb
5
6
fffd
8
1
8
fff7
fff7
ffff
5
fff6
fff9
0
ffff
6
4
fffe
7
fff6
2
5
7
fff8
3
fff8
8
9
1
3
fff8
fffc
ffff
fff9
fffe
9
0
0
fff7
6
2
2
2
3
ffff
7
fffd
ffff
fff6
fff9
6
9
fffa
fffd
fffa
9
4
7
fffc
fffc
fff6
0
6
9
4
fff8
4
3
0
1
fffb
